01000110000101101111111011110010011111010110011101101101110000001110111001000
10000000110010011001111110001111100110001101100010101111111000001011111111001
01100111010100010001000110100110000011011011111111101111101001110000000000100
01111110011110000001101001110001000111111111100101110001110011101011100111111
11001111001110010101111111011111111011100000011100011111011001110010011101110
11101010010111100011011010010110111111011110100011111110011010001011000100001
10101111000001110000011110101110110000010011011110110010010111101111011011000
01010000000110000000111110100000001010001011011111101110100110000101100010101
00011101101100100000101101010100111000000110001101010111001101000011001011000
00010000100010001101111111100000110110010110011110010001010000001100011101011
10010000101010000101000011000000010101111111011111010000011100010110100100110
00000111101101110100111110010110111100010100100110000001110001110100000110110
00100000010001101011111010001111100111101011100000001111000110000111011010101
00110001110010011101000101011111111001010100111100010110000010010110001000011
00101101001000001100110100101111001011111000000001100000010111100111011001111
00000000110101011100111000110001001001011001001000000001001010100001011111010
11010000100100001111000011010000100111110010100001100000100011111010111101001
11000111000010010011011011001000011000001101100100000110111000011000000011110
00000111111100100000000110101110010010010010011110011001001011010111001000111
00101111010110001010000000000111001110100010101001100010111011101111000010001
10001001100110001111000011000000110001101111111010111001110101100000111011101
11100111111101111111000100001111101101110010111111000000010111111100011111111
10111101010101110001001000001000010111001111100100110110011100010010100101010
11110111111111011100111100101110110001100100100110100000011010000111100110000
01010111111011110101011011001000011101111000100001011001000010001001011100000
11001111110000010100011010000111110011101001111100101111000001100100000011000
10011001101000001000000011101001000000010101111001101111111110001111000011100
01110001000111100100100101010001100011011000111100001110101000011010111101100
11111000101001111100011000100011010000100100100110100001011001110010100001110
00111000100011010101101001001010100001100110110110100000101100010001001001111
00101111110110100001011011100101100101110010011001011110110011111000000000011
11001001000001111101111111000110011011111101111111100111000111111110011000110
