11011111100110110100100010111000000101111011110001010111010100101000011100101
01001100001100000001101101110100001011001010011111100111110110111100110010111
11110000010100001010010000010111110111010001111101000100110100001101100001010
11000100110101000110111110101111111110010000100010111000010110001011010000010
11011111110111111110010000110011110011110100001100011101001001110011110001101
11110100000111001110100011100111000010110000001111001111010001001010000011101
00001100011100111000101101110100000011111000011110010011010010001001111110010
11101100100101001101111110101100111110111011010010010111111100000011110011110
00000111000110000110000011000110110100010111111111110111111011001011111110100
10110000000001111101101111101000100011000010010001100011110010111111100001011
11000011111001001010111100100111001100111010100001110000011011110101010001101
01011011000101110110010010000111101000110010010000100111100001110010011011011
11101111111100111111100001111011100010110110001111101111100000110110000010101
10110011010101011000100101011010111100011000010010100000111010111011010000010
00000010000000101011011011110111000110101011000111000011011110001101011111000
11100100100011001110110011100001000010000011000000010011001100101100010001010
11111000000001000110010001000000011011111010001101111000000010000010001111100
00100111101100111011111111111100110010001011010010011100101111000001001111101
00010010111000000001001101000000010101000010011101100011000010010011001011000
11101011000011111100101111001000011100000010011110010101000000000011000010010
01000100101101111100011100000000010010110111000001111111110011000111001110011
10110111100001111100000010000000101110001001100001100011011111000100110010111
11100100111110000001111100111111100011101101110000001011000010111011010001000
01101010111111101111111111110010111100111100110000011100001001000011011110011
11101100011111000001000001000111100000111100000001001100000011111001101110010
10000000010001111001011100011111110000111000011101111111011010000011100011010
11110010110101111101000001101100110011000011110010011000000011111001011111000
11111111001111000010100000011011001100110001000011000111011010000101111101111
10101000000001111000000001011100011101001001010010101010110100010010110011010
00101110101110110010110110001011100100111001010010110000001100010010011011101
01101101001100110010111100011100010010101101000010101011110101111100111110011
11100111101001000101001110111111011011111110000010101011010001110110011101001
