10111011100000001111100001000101100111000100000000001000000110101100000110000
11111101011001000101110111111100001111010010000000100001110110111000001101111
00111101110001110110000101111100000110100011101010111110100110100111111100010
00100011100110111011100010100111111111001100010110000110011000001011101101011
11011100101110000001100100000000110000110111101110100001001001110011100001011
11011001100001011100011010011101010001111111100101000001011110110000001010110
10100011001000000110010100111010001001100110000100111001010111001011110011111
11111101101001100010000100000011100111010011101001100101111001001101101110111
10000110111000110101101100111100110001001111100111011011010010111011011101000
01111110001000101010010100100001001001010110010110100001101111001010001101100
01011110110001001111110000100101000000011101110110111110010001010100010111100
00100011001010000001111111000101000110001000000101000000001000110100011110111
11100100000111001100011110001000000110001011111001000000000111000101111000100
01001100011110110101110000010101101000100100000001111000111001011111111001011
10101011000011010001100110011001101111110100011001101100011001011001101111001
01111101001001111000100100111111101110001110010000000010100110001010001000111
00011100100000011110001001011110000111001110001110011111010000000000001010111
10000010001000011000001011011101111110110000010101100000001001010010010101000
10111100100001110001011000100100110001000110011101111010011101101000010100000
11011110100010001111101000010110011110111100010110000000000101110100011111110
10000100101110010010011110101001000001101111011111100100100111001001111010111
01100000111111110001111110111100001000100010010001100100011110111110010000011
01011010111101010111101101111011110000100111110010001010110110011111110111010
01011111100101111100000000011110111101110010011100110111110110101000010101111
11100000111111100000001110000010011111010101101111011100101000001101101101011
10000000100111011000011000111000010010001111110011000100111001010010001100011
11111011111000111101110000101000000110110110001001011011111000001110001101010
00011101110001110000100001100100110000000111100011111101000110101011111100000
01100111001000101001100100010100111110001110001010011101011111111011110111000
00011010101000011100101001100000010000011110010101000001000111110010000100001
11111100001000110001101101111010011001100111101010100110100000110010011010011
11011101011000001101111101111001000000011101101011011111001000011101111100100
