00001532
ffffecbe
fffff012
ffffeac7
0000037b
fffff458
fffff124
fffff560
00000c77
ffffe9db
fffffd2a
00000d81
ffffff9f
fffff12b
0000036c
000005f9
ffffeaf7
00000f52
00000bde
00000b16
000004ca
ffffe7fd
0000016d
00000dee
0000121c
fffff13d
ffffe874
00000a70
00000327
fffffc83
000011e6
00001710
