11110010100001011111100010010000100100101100111111111110011011011110110100010
00000111000001011100000111111111100010100000001110111011101111000011101101000
11101111000100100010111100001101101111001001010011001100101101000100101101111
01110111011101101100001111000101001101011100110011110010101100001100100101000
10101111011111011111001011001110010010011000111111111101111100100000001011000
01000000001100001100010011001110111010101100001101000111100001100110111110111
11001011010001100001000111110001000010111100100001001011001111111000001110111
10000001000010010100001110001010111101101100001000110100101111001111111110000
11110101100011110011000011000001001101000001100001110100011101110101100111110
01001010000000100000011111001001110000110100101011001001101111111011010101000
00000001101110100100110000111010011101111111111100110010110001111111000001111
01000001010000010100011000110101000011011111101001001101101110101000010111000
11101101011110101011110111000010101111011011001110001011000000100111101000010
01001011011110100110100001110111101110100111011010000100101010111111111000001
00111000010000110000001001000011011100001000000111001110001111100100110010010
10000101101101001100001110001110110000001000110011000101000100001111100011001
11000100010000011111111100000110111111011100000000000011110010001011101101111
00001011001101111000011010000101010000001011010110111110100000111011011110110
00011000000011110000100000001011110001101000000100111110110010011111100011111
11010000111110111110111111110110110000101111101000001000100100001100010000110
01101110011111101000100011110001100100000111011011100110010011011111000110000
10001000000010011111101100000101001101110000100001111001100010111011110011111
01111000000001110100101010101100111101010010011101010110000011011000111001101
01000101111110100100001100110111000000100100110011000101101111011111111000001
11000001000000000011110000000011110010000011100001000010010000100000100110111
11000100111110110100101011110100100010100000010110110010010010111000100010000
10111100011111011000111110101101111100101100000001110010010100001000110001101
10001101110001100111101111111101000011111011011010101111101100010101001011000
01010110111111010111101111000011010100011111001110001100011110000111101100111
01111100010001010011101010000011100011010010100100010100100101100010111010010
10000000010010101011111010111100011100000000101011001001001110100011100110000
01111001001101110000110000001100001100111000001011110001111100110011100011110
