00100101111000111110100000010100001000001010001111001011110100101010000110000
01001000011010000010011000101000001111011011000111011000010110000101000000001
00110110101100111001110110111010011000100011001110110011110101011011000001001
00000001111010000001010110100100010001111110001111100110001011000011010000111
00000000000010110110111110010101110001011111011111101101100000100000011110111
10010100101100001000010110100110011010011010000110010110000101111010111110001
00001010011110000010101001001101110001100010010111001101110100000000011111111
11000101111011011011110001001101110001111011001111000100000001100100001001011
10100011100111011011101111100011100100110011001100011011100111110101100001010
11110101110111111111011111011000001000111100011001001111111111000001011110111
00101110000000011100100110110011110011100100110111011000000011000010010110101
10101000001111011101000000111010011001011111001000101100000111000011001110010
10101100001100100110101111110100000000100011001000110001100101011110001001110
10000101101010010101110110111100000000000110101111101110010111100111100010011
10111101011010100101010100100010101101000000111110100011111110110100111010000
00111011101111001011000000000001110001100011001110000001110000100010011001000
11000000001110111100101000011001101110111011011001000110001001100001111001001
10011101110111111010111001000010001010000101000111001111110000011011011110110
10101100000100100111111010110111011000010110101110100010101100111010000001101
00011001110000011101110101100111110111100101000110001001111111011011100001011
10010100010010000000011010010111101101110110010000000010010000111100111110101
11101010000001100100000110110001111111100011101111110111111000100110001000001
00010110001011010110101110001111110010110110111111101010011011110110110001001
10010000011011111110010110000111100011101000000000011110011100011110100001100
00010110000101000010010000011000000011111111011111010000000111011101110111000
01001010001010111110111111000110000110000010011001010001111001011010011000101
01010100011100011010111001011001111100100000011000000111101001101001101001110
01011110010001011111111101100000010101011111010010101101100011011010111110100
11111100011000111100000111011001100001100011111110001101011011111000110001010
01111110000101011101101110001111100101010011011001111100010011111110010000001
10001000001001011010100000111110001000011001100110011011101000011000001111011
11100010010000011101100000000101111110000010010110101011110001011110011111010
