11001110100000011001001010001011000011000111111111101101001000111000101001001
00000010111011101111111110010100100011110110110000010000011110011110111010010
01100110111000100110001100001011000100010110011100010011100101001001000011100
10010001011010011110110111110010111100010111101110010000011000101001010101110
11011100001000000101111100000000111100001001001010010001011010010000000110010
11111000011010100111101110011110011000010000100100110000000100110110000111110
10000000011001010000010110010111000101000000101110011011000011101000010001110
01110110011100010110110101111100000001101110111110001111000001111000001000000
11000101000100000000100000000001011001101010010101110001100010110111001110100
10001111100101100001010000010010111100001111111101110100011010011000010110010
11100101000101001111000000001100100100001110110010010110111010100110011100000
10001011011100000000111101111010100010111000011011110001100011101000111110000
10001101100100111111101000001101000101010001000111100100001001010000111110001
01011110000000001110000101011011111100010101110110000100010101011111111110010
11100110011011001010000000101011011000110110111000101100101000001000110011010
00000110100010101110111001100110011010110101111111101001100000000111100110011
01111011100011101111001000001101011011000000000000010111100010011111100101111
10010000000110000110110110010111011100011111001101110011000110010111011110010
00010000000001111001000101010010100100011000101011011100110111010010100111101
00001011011001001110100010000110100111010001110011100001001001000001100101011
01111110011000110000110100101010000101001111000100010111111000101111100011111
10000100011111110111000000010000000000010000111101110000011111111111100110010
00100010000101101000000111000111100111000110101110100000000001100111001101011
00011111011111110001001011111001010111000001101111100101011001100110110011111
00001100111011110000110011111000111111100000110101110000000000001000111101110
10010101011100111001001110011010111010111000100010000001011101011001010010010
00010110111001000110010011011111000000100110101010010100000110000001111101111
00100110100100001000011001101011100001010000011111110010000011000111010110000
11101010100010100000100010000000011001010010011111100100101000000001011000011
00100011000000000001110011010110010110111001010011100100111110110010000100100
01011011101000000001100101110100100011110001100101100010000011110111111011110
10000011011110010111110110000001111001100000000001110010100001110110001111110
