10111011110111010101000111000000100000011110001111101100001111101001110110010
00000010001000011101110110100010101000010111111000100000111011110101000100100
01100001111000000000001110110000110100000111001100111100001011001110001110010
11000000100111011100010001100011111011101101111100011110111111011011001101010
00101110010001000101001010100001011000111000001001101111111011010111000001100
10111101001111100111001010100011010100111101001110010011010010111100110000000
01110000011111001011111100010010000011010100110011111111100000010001111011000
00111110000111110001001000000101000011101000000010111111111011101111110110011
00000011010100111110010101011011000011011110110000010000001001000111111110010
01111111101011111001001001011111100100001010000001110010001100100101001001101
00010001000000100111001100000000110000011011001100110010101111010110110100110
11011111101000010111110001011101100000011011000100000001101001000100111100011
00000000001000110011110101010001001011101000000100000001000111001010000011111
11000011111111111000111110000010100000000101000111010011011110010010110100000
10100110101101011101100111001100110000000000000111111111011011111110000000110
00010011110010110111111011111101100001001100010000111100011000010010101111101
01101111010100000010111101110001111000000010111100001111110100000010110100101
10000001010111111010111000001111011111111110111101010010110111100001000001101
11011011111000011110111011110000001011001111111111111100110111000101001110110
00101101110001001000110111101100001100110000110101100010110100001101000111110
10110011111111010101110010000000101100110001110110100010110111101100111001000
10100000001011111001111011010000101000100011111110110000000100101101110110111
11111000101000001011001110110001101100010010001010000100100000000000100011001
01000000111111111011001000001110010000010110110000101110111111010100110011001
10010001101100010111000111111110110100000101001000011111011111101010111111110
10100010000000001011000010110001110011111001001000001110101011001001000111010
01110001010000001000010000100100011101001001010000100010010011010101001010000
01010000000001000001000100001100111111111011111001110000101100100001001011010
10110010010111110111111000111101100000000110010100011111010000111110000001111
01001101000100111010110101000101001110111010011010010001001101000010000100100
10100001111001010000111111100011110100000111111110001011001100000000000101101
01001100011000011110000001101100010000000011110101101110011111000000111110011
