11000001110100101011011111111111000000010100001111011011000000111100011011001
00100011000101110000111100100100001010111110110111101111111000111110101011011
11111101001100101111110000001000111011110011100111000100000000111100111100001
00001010001100011101100000001101001001000011001001000101111000111110110000011
11110001110011001101100100011011110110101011110100010001111110000000000111110
10110011101011001101001101000001010000010001011111000111101101011100001000111
11011100000101011110010011100110111011101111110100010010001001011110111100010
11101110000101101110011000110101000001110011100000001101110101111101011100001
01001011111111000100001011111110001011001001011000101111110010001110100011100
00101100000001011110111100000011111001000010101011110111001100010001000111010
11101111000111111100010111101010111000100010101111101111000000100000100011101
11110111111010010010101100000001010000010001101100110011000111100001001111010
11110110000011011111100011110001010001001101111000100000001011010011001000010
11111101110111101101010111101110111011001100111011010011001101000001101100011
01001101111101000110000111110110101100001011010100100110010011110011101101001
10100011101110010010011100101000001101010101101010111111110110001100100111100
00001000111011011111110011111011111011010000000100010111001010111110110111111
11110001111010101110010100110010110110111111010100010001000110111101111100011
00010010110111001101101100011111111011001101101101000101101110111111010000000
11011100000000001100010100100101111001110100001001000100010001011110000011101
11100111001100110000100011100110010001011111100000110101001011111101100010101
00100001001001111101101111011100000011100010111111111100111011000000101111111
00100010110010000010111100101110110001011100010000010000110001111010101111110
00101100110110010010111000011100110000001111010010110100000011010010100000011
11101110000111011111001011110110000001010000111100011010000001001110000000001
00011111110100110000100000001100001001100000001100001110010000000011011011101
00000011001001111100101001001110000100110001111011111111100100011111011110110
00111101000111110000100011100100000001101110111011101001111010010100010011011
11011110111111001100111000001010111001001110110001000101010110011110100100010
00010011110111001111001000011110111000110101001011110110000000010010010111000
00001001110001111101101111000010000001101110000110111100000101000000000111001
11010101000001011111000000010000000110000001001100101111001001010000000000101
