000003f1
fffffb74
fffffcec
000003f8
fffffc0a
fffffc68
0000044e
fffffeee
fffffd14
00000468
00000285
00000266
00000013
fffffc87
fffffe56
fffffa60
ffffff8a
fffffb29
fffffe33
ffffff42
fffffd11
fffffba1
fffffc5b
fffffcb6
fffffc25
000003bd
fffffba2
0000015c
fffffdfe
fffffbba
00000483
00000250
