f805f9160adc25fbf4
071819000c06120df3
05f9f40c08050c06fd
fafb33eaecf6fc0efe
0eff0d050a06ff010b
0e0ff7fe0c0e0ffdf9
f5ee12ef0c04feecf1
251eeaf122e9f4f3df
0318160ef8f5fddd29
d61bd1101032fdccd2
00ed0ffb1ee1f9fde4
edfdf6090af0eb17f7
1beb0c19e7ebe51104
fdf502101ae60ffa15
10f1fb1205fc0cf3ff
12fef3fcf50313222d
f0b803371680db6a0a
0bed010216111cf617
fe10fdeb13fbfb0a0c
140df21becf3f8f11b
08fa100ffe00fe060d
09fa1d05f1fa111ff5
11040c01fa060a13f0
1308030c0bf911fe04
e7eb1ae21c19f7fe18
fcfe0ff01f06f5e2e4
0302050a090410070e
efee110c09d32ff203
021c3301f429e311cf
e9eeda25031afe2930
02e0120204f0f319d5
ebc8210e192cd512b3
