fffff05d
000005cf
fffffce9
fffff36f
000008e7
fffffa25
00000e75
fffffd9b
fffff8cd
fffffd9f
000003a1
fffff633
fffffa9f
fffffbf9
fffffe6f
fffff7bc
00000319
0000079f
fffff804
fffff029
000008ca
ffffedd7
fffffb7c
fffffbd9
fffffcd9
fffff847
fffffd52
00000043
fffff5a4
fffff691
fffffde0
fffff99e
