e4242c2de0132df61128ee06201ef0e3
123947d2cacad0273512e30e16ddf02d
63c15078ecfb5403db0936b62e37e4c8
7f9b306cf85303e41fd73dabdac342fb
28110f010eea2cece82adbdce9e5e413
bc4dbe5efd41ebd8c44716c236c6ddcd
c6f7bad7dec7c617f7242c2b3112cb18
f6c537bae11bf0c5ed1b10a236fa224f
e93cc722253839abd5d819fb4efa3be3
18fc1af50807fd22e0c430f336e41528
d5ca3bcacc3f0ad20732dbf22ac8ff36
1ece4824ee37c00cefd24613f034f416
26f2575314e95713e72f01dd01e5bb1a
dfd4061d19dd09de0706d2cef1ed311b
fb12d0f9dd32d427ddf202021804f5f8
b90613402d472fc9b6264df022f11f23
cc05d50b2a26d6e6f1f8fb18ef04e3cc
cb221043fbe2b7cf15bb230914b0361b
1fffed1b022c1424dfd4da30dd2efbf6
4331ec2b36be01b6f3df4207150ec6b8
d81a11d0eb29cb1f08f9dce0e3cadf31
0fd00f152de40ef13a1ee40739e01f06
e1241b091226ed2423e70b09e81c18e0
26d30ee6341bf12fdd2812011e26fcec
e2290cad24beddeddaec3bf01335203c
cfc9e32509d84a25f1e1a1f53713cd98
f2e8e0352b03c7cbec4529f1224ce9b6
f9e1f41a1826a945bbed33fd120cec0f
1bddae49085551c8d4e7f127b2ff600e
be15260128ccf3d256c91127e9f0f437
d9d93926dce8b0332029172d1715c81b
04d903f70d36130c2d1d162aeed9ce0b
