2830d9ec122f1e0dd817f62f33e5d9d8
cc1f17d2cd33e1c01ccbd31808f20e04
5fe4d45bed01dfee13b3d98a1a22b4e9
20122aac0c4ac54001e0d2c129cd2e58
cc171dedd531cfdb13d4e3d41ec536f6
22a7e55b480921c92923f72ed72b57c3
f8cff216f8fc43ba32c52335d801efc7
b0e3ea38023c2be015455cb11f10d8f1
e2e1d75db0f211da343329ab21f3f144
172227f8ceebc9fd2dd431eafceb1ed4
deffd42fc11ff7de292634d4cd1ee43b
c4251fcbeee3f9f621e32f33f9ec1738
6d2709bebee805e2eb1d1ed3e10fd0d7
382a330514350837e9d8e314ca0c30f0
0f221808c8f0cf1cf61f29130d05ff20
d8dbf823b40fb84119ee19c045e2d344
dd122e1923da26e2fae01b16202b09d6
c41d4205bd1d48003abec0bd15f6d435
f305faf4f82d07072fe701ec282201d8
3dddea0fdf0f08191f392cf035232b26
2cc8f0142907eb38d50722cee9203eca
112335e5d51134e6d122e1f82a153734
e3d5e6171be3feed040f1ef6110aed07
f3d210d6e835d713d22535fa0ed1d223
140b3211bbf2ef181a090001edea0b3e
a2c9e93ed64c410b2738544ef15628fc
37f41d3a2a20b9d626ce12f6fa3bb605
143a3c0bcccb2ffce1ec3fd6dff118fb
109d10eff635fd1de4d8f45c3cb35a25
390fe8df0c2d2a0af641092ddec20231
340d23e0e6fdc11920ae2a03e7d345fc
ece9c6ed38122a37d1fe210f09ce0305
